#ifndef SINE_MODEL_H
#define SINE_MODEL_H


unsigned int sine_model_len = 3168;
unsigned char sine_model[] = {
 0x1c, 0x00, 0x00, 0x00, 0x54, 0x46, 0x4c, 0x33, 0x14, 0x00, 0x20, 0x00,
  0x1c, 0x00, 0x18, 0x00, 0x14, 0x00, 0x10, 0x00, 0x0c, 0x00, 0x00, 0x00,
  0x08, 0x00, 0x04, 0x00, 0x14, 0x00, 0x00, 0x00, 0x1c, 0x00, 0x00, 0x00,
  0x98, 0x00, 0x00, 0x00, 0xf0, 0x00, 0x00, 0x00, 0x14, 0x07, 0x00, 0x00,
  0x24, 0x07, 0x00, 0x00, 0x0c, 0x0c, 0x00, 0x00, 0x03, 0x00, 0x00, 0x00,
  0x01, 0x00, 0x00, 0x00, 0x10, 0x00, 0x00, 0x00, 0x00, 0x00, 0x0a, 0x00,
  0x10, 0x00, 0x0c, 0x00, 0x08, 0x00, 0x04, 0x00, 0x0a, 0x00, 0x00, 0x00,
  0x0c, 0x00, 0x00, 0x00, 0x1c, 0x00, 0x00, 0x00, 0x3c, 0x00, 0x00, 0x00,
  0x0f, 0x00, 0x00, 0x00, 0x73, 0x65, 0x72, 0x76, 0x69, 0x6e, 0x67, 0x5f,
  0x64, 0x65, 0x66, 0x61, 0x75, 0x6c, 0x74, 0x00, 0x01, 0x00, 0x00, 0x00,
  0x04, 0x00, 0x00, 0x00, 0x90, 0xff, 0xff, 0xff, 0x09, 0x00, 0x00, 0x00,
  0x04, 0x00, 0x00, 0x00, 0x08, 0x00, 0x00, 0x00, 0x6f, 0x75, 0x74, 0x70,
  0x75, 0x74, 0x5f, 0x30, 0x00, 0x00, 0x00, 0x00, 0x01, 0x00, 0x00, 0x00,
  0x04, 0x00, 0x00, 0x00, 0xba, 0xf9, 0xff, 0xff, 0x04, 0x00, 0x00, 0x00,
  0x0c, 0x00, 0x00, 0x00, 0x6b, 0x65, 0x72, 0x61, 0x73, 0x5f, 0x74, 0x65,
  0x6e, 0x73, 0x6f, 0x72, 0x00, 0x00, 0x00, 0x00, 0x02, 0x00, 0x00, 0x00,
  0x34, 0x00, 0x00, 0x00, 0x04, 0x00, 0x00, 0x00, 0xdc, 0xff, 0xff, 0xff,
  0x0c, 0x00, 0x00, 0x00, 0x04, 0x00, 0x00, 0x00, 0x13, 0x00, 0x00, 0x00,
  0x43, 0x4f, 0x4e, 0x56, 0x45, 0x52, 0x53, 0x49, 0x4f, 0x4e, 0x5f, 0x4d,
  0x45, 0x54, 0x41, 0x44, 0x41, 0x54, 0x41, 0x00, 0x08, 0x00, 0x0c, 0x00,
  0x08, 0x00, 0x04, 0x00, 0x08, 0x00, 0x00, 0x00, 0x0b, 0x00, 0x00, 0x00,
  0x04, 0x00, 0x00, 0x00, 0x13, 0x00, 0x00, 0x00, 0x6d, 0x69, 0x6e, 0x5f,
  0x72, 0x75, 0x6e, 0x74, 0x69, 0x6d, 0x65, 0x5f, 0x76, 0x65, 0x72, 0x73,
  0x69, 0x6f, 0x6e, 0x00, 0x0d, 0x00, 0x00, 0x00, 0x20, 0x06, 0x00, 0x00,
  0x18, 0x06, 0x00, 0x00, 0xc8, 0x05, 0x00, 0x00, 0xb0, 0x01, 0x00, 0x00,
  0x9c, 0x01, 0x00, 0x00, 0x4c, 0x01, 0x00, 0x00, 0xfc, 0x00, 0x00, 0x00,
  0xac, 0x00, 0x00, 0x00, 0xa4, 0x00, 0x00, 0x00, 0x9c, 0x00, 0x00, 0x00,
  0x94, 0x00, 0x00, 0x00, 0x74, 0x00, 0x00, 0x00, 0x04, 0x00, 0x00, 0x00,
  0x6a, 0xfa, 0xff, 0xff, 0x04, 0x00, 0x00, 0x00, 0x60, 0x00, 0x00, 0x00,
  0x0c, 0x00, 0x00, 0x00, 0x08, 0x00, 0x0e, 0x00, 0x08, 0x00, 0x04, 0x00,
  0x08, 0x00, 0x00, 0x00, 0x10, 0x00, 0x00, 0x00, 0x28, 0x00, 0x00, 0x00,
  0x00, 0x00, 0x06, 0x00, 0x08, 0x00, 0x04, 0x00, 0x06, 0x00, 0x00, 0x00,
  0x04, 0x00, 0x00, 0x00, 0x01, 0x00, 0x00, 0x00, 0xea, 0x03, 0x00, 0x00,
  0x0c, 0x00, 0x18, 0x00, 0x14, 0x00, 0x10, 0x00, 0x0c, 0x00, 0x04, 0x00,
  0x0c, 0x00, 0x00, 0x00, 0xec, 0xb7, 0xa8, 0x9a, 0xd0, 0xf4, 0x0a, 0xe3,
  0x02, 0x00, 0x00, 0x00, 0x02, 0x00, 0x00, 0x00, 0x04, 0x00, 0x00, 0x00,
  0x06, 0x00, 0x00, 0x00, 0x32, 0x2e, 0x31, 0x38, 0x2e, 0x30, 0x00, 0x00,
  0xd6, 0xfa, 0xff, 0xff, 0x04, 0x00, 0x00, 0x00, 0x10, 0x00, 0x00, 0x00,
  0x31, 0x2e, 0x35, 0x2e, 0x30, 0x00, 0x00, 0x00, 0x00, 0x00, 0x00, 0x00,
  0x00, 0x00, 0x00, 0x00, 0xd0, 0xf5, 0xff, 0xff, 0xd4, 0xf5, 0xff, 0xff,
  0xd8, 0xf5, 0xff, 0xff, 0xfe, 0xfa, 0xff, 0xff, 0x04, 0x00, 0x00, 0x00,
  0x40, 0x00, 0x00, 0x00, 0x25, 0x37, 0x3d, 0x3e, 0xa2, 0xcb, 0xca, 0xbe,
  0xdc, 0x50, 0xa6, 0xbe, 0xf3, 0x0a, 0xaa, 0xbe, 0x2c, 0x9e, 0x74, 0xbe,
  0x19, 0x4a, 0xf1, 0xbe, 0x47, 0x9f, 0xf3, 0x3e, 0x28, 0x40, 0xaf, 0xbe,
  0x4d, 0x67, 0xdf, 0x3e, 0x2f, 0xae, 0xb7, 0xbe, 0x06, 0x90, 0x02, 0x3f,
  0x9a, 0x43, 0x01, 0x3f, 0xed, 0xf2, 0x9d, 0x3e, 0x5a, 0xf1, 0xb6, 0x3b,
  0xeb, 0xa9, 0x58, 0x3e, 0xc1, 0xfa, 0x15, 0xbf, 0x4a, 0xfb, 0xff, 0xff,
  0x04, 0x00, 0x00, 0x00, 0x40, 0x00, 0x00, 0x00, 0x0c, 0xfe, 0xdf, 0xbe,
  0x00, 0x00, 0x00, 0x00, 0x00, 0x00, 0x00, 0x00, 0x00, 0x00, 0x00, 0x00,
  0x00, 0x00, 0x00, 0x00, 0x00, 0x00, 0x00, 0x00, 0x3b, 0x77, 0xdc, 0xbd,
  0x00, 0x00, 0x00, 0x00, 0x08, 0xeb, 0xab, 0xbe, 0x00, 0x00, 0x00, 0x00,
  0x82, 0x36, 0x39, 0x3e, 0xa9, 0x9d, 0xce, 0xbc, 0x09, 0x35, 0x79, 0xbf,
  0xf7, 0xec, 0xbd, 0x3e, 0x11, 0x3b, 0x0e, 0x3f, 0x00, 0x00, 0x00, 0x00,
  0x96, 0xfb, 0xff, 0xff, 0x04, 0x00, 0x00, 0x00, 0x40, 0x00, 0x00, 0x00,
  0xdf, 0xdb, 0xd6, 0x3e, 0x68, 0x4e, 0x88, 0xbd, 0x00, 0x00, 0x00, 0x00,
  0x93, 0x1a, 0xe6, 0x3e, 0x2b, 0xb9, 0x00, 0x3e, 0x3f, 0xcf, 0xb0, 0xbd,
  0xda, 0x8e, 0x92, 0xbc, 0x70, 0xe0, 0xe5, 0x3d, 0x00, 0x00, 0x00, 0x00,
  0x00, 0x00, 0x00, 0x00, 0x3f, 0x1a, 0x26, 0x3e, 0x0d, 0xf2, 0x09, 0xbd,
  0x18, 0x83, 0xc5, 0x3e, 0xf6, 0x42, 0x96, 0xbe, 0xd0, 0xfe, 0xd6, 0x3e,
  0x03, 0xe8, 0xb1, 0xbe, 0xe2, 0xfb, 0xff, 0xff, 0x04, 0x00, 0x00, 0x00,
  0x04, 0x00, 0x00, 0x00, 0x09, 0x9b, 0x92, 0xbe, 0xf2, 0xfb, 0xff, 0xff,
  0x04, 0x00, 0x00, 0x00, 0x00, 0x04, 0x00, 0x00, 0x5e, 0xfe, 0xb3, 0xbe,
  0x70, 0x05, 0xae, 0xbc, 0x68, 0xb6, 0xc7, 0xbd, 0x36, 0xc0, 0x73, 0x3e,
  0xa8, 0x5f, 0x9d, 0xbd, 0x40, 0x24, 0x28, 0xbe, 0xe5, 0xf7, 0x35, 0xbf,
  0xda, 0xbb, 0x05, 0xbe, 0x85, 0x35, 0xd3, 0xbe, 0xff, 0x8d, 0xd6, 0x3e,
  0x98, 0xd6, 0xa4, 0x3e, 0x61, 0x1b, 0x89, 0xbe, 0x32, 0x70, 0xc9, 0xbc,
  0xae, 0xd7, 0x87, 0x3e, 0x47, 0xd8, 0xd8, 0x3d, 0xc2, 0x3f, 0x33, 0x3e,
  0x58, 0xe6, 0x77, 0x3d, 0x28, 0x41, 0xc5, 0xbe, 0xac, 0xdf, 0xdc, 0x3d,
  0xf4, 0x1a, 0xec, 0x3d, 0x41, 0x64, 0xaa, 0x3e, 0xda, 0xd8, 0x11, 0x3e,
  0xb8, 0x87, 0xbd, 0xbd, 0x40, 0x6e, 0xb0, 0x3c, 0x66, 0x20, 0xc8, 0xbe,
  0xc7, 0x15, 0xd3, 0xbe, 0xa8, 0xe4, 0xcd, 0xbe, 0xa4, 0xe4, 0xfe, 0xbd,
  0x02, 0xef, 0x9e, 0xbe, 0x07, 0x5a, 0x35, 0x3e, 0x41, 0xc6, 0x04, 0x3e,
  0xa2, 0x13, 0x4f, 0x3e, 0x98, 0xe5, 0x15, 0xbd, 0x7a, 0xda, 0x55, 0x3e,
  0x9a, 0x4c, 0x0e, 0x3e, 0x04, 0x3c, 0xb1, 0xbe, 0x36, 0x4a, 0x5a, 0x3e,
  0x2e, 0xe0, 0xca, 0xbe, 0xf4, 0x6c, 0x78, 0xbe, 0xe4, 0xa4, 0xb7, 0x3d,
  0x20, 0xaf, 0x8e, 0xbe, 0x16, 0x69, 0x20, 0xbe, 0x0b, 0x1a, 0x3f, 0xbe,
  0xf3, 0xf1, 0xd8, 0xbe, 0xf2, 0xd2, 0xda, 0xbe, 0x1a, 0x75, 0x23, 0x3e,
  0x87, 0xbf, 0x4a, 0xbe, 0xa3, 0x77, 0x9e, 0x3e, 0xe2, 0x36, 0x9f, 0xbf,
  0xd8, 0xe9, 0x91, 0xbd, 0x27, 0xfe, 0x9c, 0x3e, 0x4e, 0x50, 0x8b, 0xbe,
  0xbe, 0x8a, 0x07, 0xbe, 0x8e, 0xd9, 0x4f, 0x3e, 0xd2, 0xca, 0x27, 0x3e,
  0x26, 0x15, 0x4b, 0x3e, 0xbf, 0xd9, 0xba, 0xbe, 0x22, 0xd7, 0xaf, 0xbe,
  0xd1, 0xf2, 0x96, 0x3e, 0xb7, 0x5a, 0x7e, 0x3d, 0x74, 0x33, 0x2d, 0xbf,
  0x1a, 0xe9, 0x86, 0x3d, 0x81, 0xb0, 0x1a, 0xbe, 0x15, 0x67, 0xc4, 0x3e,
  0x9a, 0xaa, 0x69, 0xbe, 0xfa, 0x9c, 0x4f, 0x3e, 0xe0, 0xd1, 0xf8, 0x3c,
  0x68, 0x7a, 0x33, 0xbe, 0x36, 0x5c, 0x3c, 0x3e, 0xac, 0xdb, 0xf4, 0x3d,
  0x11, 0xb8, 0xa9, 0xbc, 0x00, 0xc5, 0x49, 0xbd, 0x9c, 0xef, 0x83, 0x3d,
  0x9f, 0x87, 0x46, 0xbe, 0x1e, 0xca, 0x22, 0x3e, 0x9c, 0x60, 0x53, 0x3e,
  0xaa, 0xe3, 0xfc, 0xbe, 0xb8, 0x2b, 0xf5, 0x3d, 0xab, 0x18, 0x30, 0xbe,
  0x9f, 0x40, 0x44, 0xbe, 0xca, 0x6d, 0x31, 0xbe, 0xa6, 0xaf, 0x6c, 0x3e,
  0xd9, 0x33, 0xce, 0xbe, 0xa0, 0xe8, 0x7d, 0xbd, 0x57, 0x01, 0xb8, 0xbe,
  0x3a, 0xb0, 0x31, 0x3e, 0xb8, 0x6d, 0x65, 0x3d, 0xe2, 0x60, 0x0f, 0x3e,
  0xa4, 0x0e, 0xe5, 0x3d, 0x4f, 0xb2, 0xae, 0x3e, 0x08, 0x39, 0xb6, 0xbb,
  0x97, 0x44, 0xab, 0xbe, 0x11, 0xf7, 0xeb, 0x3d, 0x15, 0x93, 0x80, 0x3e,
  0x0e, 0x72, 0x5f, 0xbc, 0x40, 0x26, 0x12, 0x3d, 0x88, 0x1b, 0x32, 0xbe,
  0x54, 0xf4, 0xad, 0x3d, 0x2e, 0xff, 0x60, 0x3e, 0xd4, 0x36, 0xbe, 0xbd,
  0x20, 0xc8, 0xef, 0xbc, 0x78, 0x6b, 0x20, 0x3d, 0x6c, 0x3d, 0x11, 0xbe,
  0x80, 0xe7, 0x79, 0xbc, 0xb1, 0x7c, 0xd2, 0x3e, 0x58, 0x33, 0xd4, 0xbd,
  0x08, 0x05, 0xdc, 0xbe, 0xba, 0xc4, 0x2c, 0xbe, 0x9e, 0x31, 0xa3, 0xbe,
  0x6f, 0x37, 0x70, 0x3c, 0xde, 0xe1, 0x25, 0x3e, 0x2d, 0xed, 0x75, 0xbe,
  0xeb, 0x19, 0xd8, 0x3c, 0xba, 0xf5, 0x44, 0x3e, 0x8c, 0x14, 0xa9, 0x3d,
  0x45, 0xd3, 0x42, 0xbe, 0x3d, 0x8c, 0xc2, 0x3e, 0xab, 0xc0, 0x92, 0xbe,
  0xb4, 0x83, 0x72, 0x3e, 0x43, 0x5d, 0xa4, 0x3e, 0xe7, 0x11, 0x82, 0x3e,
  0xc8, 0x95, 0xab, 0xbe, 0xb7, 0x00, 0xb8, 0xbe, 0xc3, 0x00, 0xc2, 0x3e,
  0x69, 0xa2, 0xd4, 0xbe, 0x3b, 0x0a, 0xcf, 0x3e, 0x4b, 0x50, 0x9a, 0xbe,
  0x00, 0x8d, 0xc6, 0x3a, 0x80, 0x78, 0x76, 0x3c, 0x16, 0x87, 0x2e, 0xbe,
  0xe2, 0x44, 0x08, 0x3e, 0x14, 0x15, 0xa6, 0x3d, 0xae, 0x13, 0xa7, 0xbe,
  0xb9, 0x80, 0xca, 0x3e, 0xf4, 0x8b, 0xc3, 0x3d, 0xcc, 0x5c, 0xeb, 0x3d,
  0x58, 0x66, 0xcf, 0xbd, 0x30, 0x77, 0x71, 0xbe, 0x84, 0xad, 0xaf, 0xbd,
  0x02, 0x4d, 0x73, 0xbe, 0x8c, 0xc4, 0x07, 0xbe, 0x0c, 0xe9, 0x83, 0xbe,
  0x00, 0xbc, 0xc1, 0xbc, 0xb2, 0xc8, 0xac, 0xbe, 0xa0, 0x68, 0xb5, 0xbe,
  0x92, 0xc1, 0x28, 0xbe, 0x38, 0xf9, 0x5d, 0xbd, 0x09, 0x77, 0xa3, 0x3e,
  0xe6, 0x80, 0x68, 0xbe, 0x36, 0x55, 0xab, 0xbe, 0x23, 0x79, 0x8e, 0x3e,
  0x46, 0xed, 0x50, 0x3e, 0x60, 0x96, 0xfd, 0xbc, 0x3e, 0x19, 0x41, 0xbe,
  0xdd, 0xa7, 0xa9, 0xbe, 0x88, 0xc3, 0xce, 0xbd, 0x28, 0x3f, 0x14, 0xbe,
  0x00, 0xdf, 0x73, 0x3d, 0x0c, 0x39, 0xc7, 0xbd, 0x64, 0xa4, 0x9f, 0xbd,
  0x87, 0x27, 0x36, 0x3b, 0x50, 0xdd, 0xd2, 0xbc, 0x44, 0x17, 0xfb, 0xbd,
  0x39, 0xe6, 0x93, 0x3e, 0xd1, 0x60, 0xdb, 0x3e, 0xfc, 0xaf, 0xb6, 0x3d,
  0xef, 0x9f, 0xdf, 0x3e, 0x41, 0xef, 0xc5, 0xbe, 0x2d, 0xeb, 0xad, 0x3d,
  0xaa, 0x19, 0x2c, 0x3e, 0xca, 0x1d, 0x1b, 0x3e, 0x18, 0xf7, 0xbe, 0xbe,
  0x05, 0x83, 0xfd, 0xbe, 0x08, 0x0b, 0x1b, 0x3d, 0x89, 0xbf, 0x09, 0x3f,
  0xa0, 0xc2, 0xdf, 0x3c, 0xf2, 0xc4, 0x42, 0x3e, 0xad, 0xc2, 0x81, 0x3e,
  0x69, 0x5b, 0x85, 0x3e, 0xfa, 0x02, 0x34, 0x3e, 0xf0, 0x61, 0x89, 0xbc,
  0x9b, 0x84, 0xb0, 0x3e, 0x60, 0xb7, 0x22, 0xbd, 0x00, 0xfd, 0xa4, 0x3b,
  0x60, 0xe1, 0x3b, 0xbc, 0x19, 0xa9, 0xbf, 0x3e, 0x97, 0x3a, 0x59, 0xbe,
  0xb7, 0xba, 0xa9, 0xbe, 0x01, 0x47, 0x8c, 0xbe, 0xe4, 0x4c, 0xb5, 0xbb,
  0xc8, 0xad, 0x08, 0x3e, 0x32, 0xb1, 0xbf, 0xbe, 0xf4, 0x21, 0xb1, 0xbe,
  0xd3, 0x2b, 0xac, 0x3e, 0x92, 0xe3, 0x57, 0x3e, 0xc0, 0x1c, 0x88, 0x3c,
  0xec, 0xd7, 0x32, 0xbe, 0x4f, 0xab, 0x6b, 0xbe, 0x4b, 0x49, 0x58, 0xbf,
  0xba, 0x9d, 0x71, 0xbe, 0x53, 0xc2, 0x83, 0xbe, 0xb9, 0x92, 0xa5, 0x3e,
  0x26, 0x96, 0xb0, 0xbe, 0x56, 0x1e, 0x6c, 0xbe, 0xae, 0xfa, 0xd7, 0x3d,
  0x7e, 0x20, 0x3b, 0x3f, 0x14, 0x18, 0xac, 0x3e, 0x50, 0x13, 0x8a, 0xbe,
  0xcd, 0xd8, 0x21, 0x3f, 0xe0, 0xdd, 0x37, 0xbd, 0x4d, 0xe2, 0xb2, 0x3e,
  0xeb, 0x2b, 0x51, 0xbe, 0x21, 0x9c, 0xdd, 0x3e, 0x47, 0x1a, 0xa0, 0x3e,
  0xd8, 0xc3, 0xb1, 0xbe, 0x91, 0xb3, 0xc7, 0x3e, 0x30, 0xa4, 0xf6, 0xbd,
  0x42, 0x4f, 0x18, 0x3e, 0x87, 0x68, 0x7a, 0x3e, 0x5a, 0x46, 0xcd, 0x3d,
  0xf3, 0x78, 0x51, 0x3f, 0xde, 0x98, 0xdc, 0x3d, 0xe4, 0x8b, 0x82, 0x3e,
  0x4c, 0xf5, 0x8b, 0x3d, 0x5b, 0x98, 0x9b, 0xbf, 0x84, 0x37, 0x93, 0x3d,
  0x7a, 0x0b, 0x29, 0xbe, 0xaf, 0x0b, 0xd0, 0xbe, 0x9a, 0x9b, 0xbb, 0xbe,
  0x0b, 0x62, 0xcb, 0xbe, 0x3f, 0xbc, 0x09, 0xbf, 0x60, 0xbd, 0x7a, 0x3d,
  0x6d, 0x49, 0xc8, 0xbe, 0x54, 0xd2, 0xfe, 0x3d, 0x19, 0x89, 0x2e, 0x3e,
  0x4e, 0x23, 0x46, 0x3e, 0xd5, 0x09, 0xa3, 0xbe, 0xd3, 0xe7, 0x11, 0x3f,
  0x56, 0x19, 0xf7, 0x3e, 0x8f, 0x49, 0xa1, 0x3e, 0x6c, 0xfc, 0x53, 0x3e,
  0x4b, 0xb1, 0xb5, 0x3e, 0x72, 0xcd, 0x02, 0x3e, 0x2a, 0xb9, 0x3a, 0xbe,
  0x75, 0x82, 0xcc, 0x3e, 0x50, 0x25, 0x77, 0xbd, 0xb3, 0x0d, 0xa6, 0x3e,
  0xfc, 0xf5, 0xb5, 0x3d, 0x71, 0x2f, 0xd3, 0x3d, 0x8c, 0x78, 0xb7, 0x3d,
  0x75, 0x00, 0xda, 0x3c, 0x5e, 0x4f, 0x55, 0x3e, 0x9a, 0xa1, 0xb2, 0x3d,
  0xf2, 0xfe, 0xa6, 0xbe, 0xe0, 0xa7, 0x06, 0xbf, 0x81, 0xe1, 0xab, 0x3e,
  0x00, 0x00, 0x06, 0x00, 0x08, 0x00, 0x04, 0x00, 0x06, 0x00, 0x00, 0x00,
  0x04, 0x00, 0x00, 0x00, 0x40, 0x00, 0x00, 0x00, 0x0f, 0x9f, 0x12, 0xbf,
  0xec, 0xe9, 0x82, 0x3e, 0xd0, 0x9a, 0x31, 0x3d, 0xbe, 0x31, 0xab, 0x3f,
  0x23, 0xf6, 0x0d, 0xbf, 0xad, 0xeb, 0xa0, 0x3e, 0xce, 0x83, 0x0c, 0x3e,
  0x11, 0x86, 0xb3, 0xbe, 0x0c, 0x9b, 0x7b, 0x3e, 0x1c, 0x7e, 0xe2, 0x3e,
  0x00, 0xb7, 0x1f, 0xbf, 0xb7, 0x9b, 0xf3, 0x3d, 0x49, 0x0f, 0x75, 0xbf,
  0x73, 0xfe, 0x41, 0x3f, 0xdb, 0x3a, 0xb3, 0x3f, 0xad, 0x55, 0x2a, 0x3f,
  0x30, 0xfb, 0xff, 0xff, 0x34, 0xfb, 0xff, 0xff, 0x0f, 0x00, 0x00, 0x00,
  0x4d, 0x4c, 0x49, 0x52, 0x20, 0x43, 0x6f, 0x6e, 0x76, 0x65, 0x72, 0x74,
  0x65, 0x64, 0x2e, 0x00, 0x01, 0x00, 0x00, 0x00, 0x14, 0x00, 0x00, 0x00,
  0x00, 0x00, 0x0e, 0x00, 0x18, 0x00, 0x14, 0x00, 0x10, 0x00, 0x0c, 0x00,
  0x08, 0x00, 0x04, 0x00, 0x0e, 0x00, 0x00, 0x00, 0x14, 0x00, 0x00, 0x00,
  0x1c, 0x00, 0x00, 0x00, 0xd8, 0x00, 0x00, 0x00, 0xdc, 0x00, 0x00, 0x00,
  0xe0, 0x00, 0x00, 0x00, 0x04, 0x00, 0x00, 0x00, 0x6d, 0x61, 0x69, 0x6e,
  0x00, 0x00, 0x00, 0x00, 0x03, 0x00, 0x00, 0x00, 0x80, 0x00, 0x00, 0x00,
  0x38, 0x00, 0x00, 0x00, 0x04, 0x00, 0x00, 0x00, 0x9a, 0xff, 0xff, 0xff,
  0x10, 0x00, 0x00, 0x00, 0x00, 0x00, 0x00, 0x08, 0x0c, 0x00, 0x00, 0x00,
  0x10, 0x00, 0x00, 0x00, 0xac, 0xfb, 0xff, 0xff, 0x01, 0x00, 0x00, 0x00,
  0x09, 0x00, 0x00, 0x00, 0x03, 0x00, 0x00, 0x00, 0x08, 0x00, 0x00, 0x00,
  0x01, 0x00, 0x00, 0x00, 0x03, 0x00, 0x00, 0x00, 0xca, 0xff, 0xff, 0xff,
  0x10, 0x00, 0x00, 0x00, 0x00, 0x00, 0x00, 0x08, 0x10, 0x00, 0x00, 0x00,
  0x14, 0x00, 0x00, 0x00, 0xba, 0xff, 0xff, 0xff, 0x00, 0x00, 0x00, 0x01,
  0x01, 0x00, 0x00, 0x00, 0x08, 0x00, 0x00, 0x00, 0x03, 0x00, 0x00, 0x00,
  0x07, 0x00, 0x00, 0x00, 0x02, 0x00, 0x00, 0x00, 0x04, 0x00, 0x00, 0x00,
  0x00, 0x00, 0x0e, 0x00, 0x16, 0x00, 0x00, 0x00, 0x10, 0x00, 0x0c, 0x00,
  0x0b, 0x00, 0x04, 0x00, 0x0e, 0x00, 0x00, 0x00, 0x18, 0x00, 0x00, 0x00,
  0x00, 0x00, 0x00, 0x08, 0x18, 0x00, 0x00, 0x00, 0x1c, 0x00, 0x00, 0x00,
  0x00, 0x00, 0x06, 0x00, 0x08, 0x00, 0x07, 0x00, 0x06, 0x00, 0x00, 0x00,
  0x00, 0x00, 0x00, 0x01, 0x01, 0x00, 0x00, 0x00, 0x07, 0x00, 0x00, 0x00,
  0x03, 0x00, 0x00, 0x00, 0x00, 0x00, 0x00, 0x00, 0x06, 0x00, 0x00, 0x00,
  0x05, 0x00, 0x00, 0x00, 0x01, 0x00, 0x00, 0x00, 0x09, 0x00, 0x00, 0x00,
  0x01, 0x00, 0x00, 0x00, 0x00, 0x00, 0x00, 0x00, 0x0a, 0x00, 0x00, 0x00,
  0x7c, 0x03, 0x00, 0x00, 0x24, 0x03, 0x00, 0x00, 0xcc, 0x02, 0x00, 0x00,
  0x90, 0x02, 0x00, 0x00, 0x34, 0x02, 0x00, 0x00, 0xdc, 0x01, 0x00, 0x00,
  0x90, 0x01, 0x00, 0x00, 0xfc, 0x00, 0x00, 0x00, 0x60, 0x00, 0x00, 0x00,
  0x04, 0x00, 0x00, 0x00, 0xc2, 0xfc, 0xff, 0xff, 0x00, 0x00, 0x00, 0x01,
  0x14, 0x00, 0x00, 0x00, 0x1c, 0x00, 0x00, 0x00, 0x1c, 0x00, 0x00, 0x00,
  0x0a, 0x00, 0x00, 0x00, 0x34, 0x00, 0x00, 0x00, 0x02, 0x00, 0x00, 0x00,
  0xff, 0xff, 0xff, 0xff, 0x01, 0x00, 0x00, 0x00, 0xac, 0xfc, 0xff, 0xff,
  0x1b, 0x00, 0x00, 0x00, 0x53, 0x74, 0x61, 0x74, 0x65, 0x66, 0x75, 0x6c,
  0x50, 0x61, 0x72, 0x74, 0x69, 0x74, 0x69, 0x6f, 0x6e, 0x65, 0x64, 0x43,
  0x61, 0x6c, 0x6c, 0x5f, 0x31, 0x3a, 0x30, 0x00, 0x02, 0x00, 0x00, 0x00,
  0x01, 0x00, 0x00, 0x00, 0x01, 0x00, 0x00, 0x00, 0x1a, 0xfd, 0xff, 0xff,
  0x00, 0x00, 0x00, 0x01, 0x14, 0x00, 0x00, 0x00, 0x1c, 0x00, 0x00, 0x00,
  0x1c, 0x00, 0x00, 0x00, 0x09, 0x00, 0x00, 0x00, 0x74, 0x00, 0x00, 0x00,
  0x02, 0x00, 0x00, 0x00, 0xff, 0xff, 0xff, 0xff, 0x10, 0x00, 0x00, 0x00,
  0x04, 0xfd, 0xff, 0xff, 0x58, 0x00, 0x00, 0x00, 0x73, 0x65, 0x71, 0x75,
  0x65, 0x6e, 0x74, 0x69, 0x61, 0x6c, 0x5f, 0x31, 0x2f, 0x64, 0x65, 0x6e,
  0x73, 0x65, 0x5f, 0x31, 0x5f, 0x32, 0x2f, 0x4d, 0x61, 0x74, 0x4d, 0x75,
  0x6c, 0x3b, 0x73, 0x65, 0x71, 0x75, 0x65, 0x6e, 0x74, 0x69, 0x61, 0x6c,
  0x5f, 0x31, 0x2f, 0x64, 0x65, 0x6e, 0x73, 0x65, 0x5f, 0x31, 0x5f, 0x32,
  0x2f, 0x52, 0x65, 0x6c, 0x75, 0x3b, 0x73, 0x65, 0x71, 0x75, 0x65, 0x6e,
  0x74, 0x69, 0x61, 0x6c, 0x5f, 0x31, 0x2f, 0x64, 0x65, 0x6e, 0x73, 0x65,
  0x5f, 0x31, 0x5f, 0x32, 0x2f, 0x42, 0x69, 0x61, 0x73, 0x41, 0x64, 0x64,
  0x00, 0x00, 0x00, 0x00, 0x02, 0x00, 0x00, 0x00, 0x01, 0x00, 0x00, 0x00,
  0x10, 0x00, 0x00, 0x00, 0xb2, 0xfd, 0xff, 0xff, 0x00, 0x00, 0x00, 0x01,
  0x14, 0x00, 0x00, 0x00, 0x1c, 0x00, 0x00, 0x00, 0x1c, 0x00, 0x00, 0x00,
  0x08, 0x00, 0x00, 0x00, 0x6c, 0x00, 0x00, 0x00, 0x02, 0x00, 0x00, 0x00,
  0xff, 0xff, 0xff, 0xff, 0x10, 0x00, 0x00, 0x00, 0x9c, 0xfd, 0xff, 0xff,
  0x52, 0x00, 0x00, 0x00, 0x73, 0x65, 0x71, 0x75, 0x65, 0x6e, 0x74, 0x69,
  0x61, 0x6c, 0x5f, 0x31, 0x2f, 0x64, 0x65, 0x6e, 0x73, 0x65, 0x5f, 0x31,
  0x2f, 0x4d, 0x61, 0x74, 0x4d, 0x75, 0x6c, 0x3b, 0x73, 0x65, 0x71, 0x75,
  0x65, 0x6e, 0x74, 0x69, 0x61, 0x6c, 0x5f, 0x31, 0x2f, 0x64, 0x65, 0x6e,
  0x73, 0x65, 0x5f, 0x31, 0x2f, 0x52, 0x65, 0x6c, 0x75, 0x3b, 0x73, 0x65,
  0x71, 0x75, 0x65, 0x6e, 0x74, 0x69, 0x61, 0x6c, 0x5f, 0x31, 0x2f, 0x64,
  0x65, 0x6e, 0x73, 0x65, 0x5f, 0x31, 0x2f, 0x42, 0x69, 0x61, 0x73, 0x41,
  0x64, 0x64, 0x00, 0x00, 0x02, 0x00, 0x00, 0x00, 0x01, 0x00, 0x00, 0x00,
  0x10, 0x00, 0x00, 0x00, 0x96, 0xfe, 0xff, 0xff, 0x00, 0x00, 0x00, 0x01,
  0x10, 0x00, 0x00, 0x00, 0x10, 0x00, 0x00, 0x00, 0x07, 0x00, 0x00, 0x00,
  0x28, 0x00, 0x00, 0x00, 0x1c, 0xfe, 0xff, 0xff, 0x1b, 0x00, 0x00, 0x00,
  0x73, 0x65, 0x71, 0x75, 0x65, 0x6e, 0x74, 0x69, 0x61, 0x6c, 0x5f, 0x31,
  0x2f, 0x64, 0x65, 0x6e, 0x73, 0x65, 0x5f, 0x31, 0x2f, 0x4d, 0x61, 0x74,
  0x4d, 0x75, 0x6c, 0x00, 0x02, 0x00, 0x00, 0x00, 0x10, 0x00, 0x00, 0x00,
  0x01, 0x00, 0x00, 0x00, 0xde, 0xfe, 0xff, 0xff, 0x00, 0x00, 0x00, 0x01,
  0x10, 0x00, 0x00, 0x00, 0x10, 0x00, 0x00, 0x00, 0x06, 0x00, 0x00, 0x00,
  0x38, 0x00, 0x00, 0x00, 0x64, 0xfe, 0xff, 0xff, 0x2b, 0x00, 0x00, 0x00,
  0x73, 0x65, 0x71, 0x75, 0x65, 0x6e, 0x74, 0x69, 0x61, 0x6c, 0x5f, 0x31,
  0x2f, 0x64, 0x65, 0x6e, 0x73, 0x65, 0x5f, 0x31, 0x2f, 0x42, 0x69, 0x61,
  0x73, 0x41, 0x64, 0x64, 0x2f, 0x52, 0x65, 0x61, 0x64, 0x56, 0x61, 0x72,
  0x69, 0x61, 0x62, 0x6c, 0x65, 0x4f, 0x70, 0x00, 0x01, 0x00, 0x00, 0x00,
  0x10, 0x00, 0x00, 0x00, 0x32, 0xff, 0xff, 0xff, 0x00, 0x00, 0x00, 0x01,
  0x10, 0x00, 0x00, 0x00, 0x10, 0x00, 0x00, 0x00, 0x05, 0x00, 0x00, 0x00,
  0x3c, 0x00, 0x00, 0x00, 0xb8, 0xfe, 0xff, 0xff, 0x2d, 0x00, 0x00, 0x00,
  0x73, 0x65, 0x71, 0x75, 0x65, 0x6e, 0x74, 0x69, 0x61, 0x6c, 0x5f, 0x31,
  0x2f, 0x64, 0x65, 0x6e, 0x73, 0x65, 0x5f, 0x31, 0x5f, 0x32, 0x2f, 0x42,
  0x69, 0x61, 0x73, 0x41, 0x64, 0x64, 0x2f, 0x52, 0x65, 0x61, 0x64, 0x56,
  0x61, 0x72, 0x69, 0x61, 0x62, 0x6c, 0x65, 0x4f, 0x70, 0x00, 0x00, 0x00,
  0x01, 0x00, 0x00, 0x00, 0x10, 0x00, 0x00, 0x00, 0x8a, 0xff, 0xff, 0xff,
  0x00, 0x00, 0x00, 0x01, 0x10, 0x00, 0x00, 0x00, 0x10, 0x00, 0x00, 0x00,
  0x04, 0x00, 0x00, 0x00, 0x1c, 0x00, 0x00, 0x00, 0x10, 0xff, 0xff, 0xff,
  0x0f, 0x00, 0x00, 0x00, 0x61, 0x72, 0x69, 0x74, 0x68, 0x2e, 0x63, 0x6f,
  0x6e, 0x73, 0x74, 0x61, 0x6e, 0x74, 0x32, 0x00, 0x01, 0x00, 0x00, 0x00,
  0x01, 0x00, 0x00, 0x00, 0xc2, 0xff, 0xff, 0xff, 0x00, 0x00, 0x00, 0x01,
  0x10, 0x00, 0x00, 0x00, 0x10, 0x00, 0x00, 0x00, 0x03, 0x00, 0x00, 0x00,
  0x1c, 0x00, 0x00, 0x00, 0x48, 0xff, 0xff, 0xff, 0x0f, 0x00, 0x00, 0x00,
  0x61, 0x72, 0x69, 0x74, 0x68, 0x2e, 0x63, 0x6f, 0x6e, 0x73, 0x74, 0x61,
  0x6e, 0x74, 0x31, 0x00, 0x02, 0x00, 0x00, 0x00, 0x10, 0x00, 0x00, 0x00,
  0x10, 0x00, 0x00, 0x00, 0x00, 0x00, 0x16, 0x00, 0x18, 0x00, 0x14, 0x00,
  0x00, 0x00, 0x10, 0x00, 0x0c, 0x00, 0x08, 0x00, 0x00, 0x00, 0x00, 0x00,
  0x00, 0x00, 0x07, 0x00, 0x16, 0x00, 0x00, 0x00, 0x00, 0x00, 0x00, 0x01,
  0x10, 0x00, 0x00, 0x00, 0x10, 0x00, 0x00, 0x00, 0x02, 0x00, 0x00, 0x00,
  0x1c, 0x00, 0x00, 0x00, 0x9c, 0xff, 0xff, 0xff, 0x0e, 0x00, 0x00, 0x00,
  0x61, 0x72, 0x69, 0x74, 0x68, 0x2e, 0x63, 0x6f, 0x6e, 0x73, 0x74, 0x61,
  0x6e, 0x74, 0x00, 0x00, 0x02, 0x00, 0x00, 0x00, 0x01, 0x00, 0x00, 0x00,
  0x10, 0x00, 0x00, 0x00, 0x00, 0x00, 0x16, 0x00, 0x1c, 0x00, 0x18, 0x00,
  0x00, 0x00, 0x14, 0x00, 0x10, 0x00, 0x0c, 0x00, 0x00, 0x00, 0x00, 0x00,
  0x08, 0x00, 0x07, 0x00, 0x16, 0x00, 0x00, 0x00, 0x00, 0x00, 0x00, 0x01,
  0x14, 0x00, 0x00, 0x00, 0x20, 0x00, 0x00, 0x00, 0x20, 0x00, 0x00, 0x00,
  0x01, 0x00, 0x00, 0x00, 0x3c, 0x00, 0x00, 0x00, 0x02, 0x00, 0x00, 0x00,
  0xff, 0xff, 0xff, 0xff, 0x01, 0x00, 0x00, 0x00, 0x04, 0x00, 0x04, 0x00,
  0x04, 0x00, 0x00, 0x00, 0x1e, 0x00, 0x00, 0x00, 0x73, 0x65, 0x72, 0x76,
  0x69, 0x6e, 0x67, 0x5f, 0x64, 0x65, 0x66, 0x61, 0x75, 0x6c, 0x74, 0x5f,
  0x6b, 0x65, 0x72, 0x61, 0x73, 0x5f, 0x74, 0x65, 0x6e, 0x73, 0x6f, 0x72,
  0x3a, 0x30, 0x00, 0x00, 0x02, 0x00, 0x00, 0x00, 0x01, 0x00, 0x00, 0x00,
  0x01, 0x00, 0x00, 0x00, 0x01, 0x00, 0x00, 0x00, 0x10, 0x00, 0x00, 0x00,
  0x0c, 0x00, 0x0c, 0x00, 0x0b, 0x00, 0x00, 0x00, 0x00, 0x00, 0x04, 0x00,
  0x0c, 0x00, 0x00, 0x00, 0x09, 0x00, 0x00, 0x00, 0x00, 0x00, 0x00, 0x09
 
}

#endif //SINE_MODEL_H